#ifndef NETWORK_MODEL_H
#define NETWORK_MODEL_H

const unsigned int network_model_dim1 = 8504;

const unsigned char network_model[8504] = {
    28, 0, 0, 0, 84, 70, 76, 51, 20, 0, 32, 0, 28, 0, 24, 0, 20, 0, 16, 0, 12, 
    0, 0, 0, 8, 0, 4, 0, 20, 0, 0, 0, 28, 0, 0, 0, 140, 0, 0, 0, 228, 0, 0, 0, 
    140, 23, 0, 0, 156, 23, 0, 0, 204, 32, 0, 0, 3, 0, 0, 0, 1, 0, 0, 0, 16, 0, 
    0, 0, 0, 0, 10, 0, 16, 0, 12, 0, 8, 0, 4, 0, 10, 0, 0, 0, 12, 0, 0, 0, 28, 
    0, 0, 0, 56, 0, 0, 0, 15, 0, 0, 0, 115, 101, 114, 118, 105, 110, 103, 95, 
    100, 101, 102, 97, 117, 108, 116, 0, 1, 0, 0, 0, 4, 0, 0, 0, 156, 255, 255, 
    255, 13, 0, 0, 0, 4, 0, 0, 0, 7, 0, 0, 0, 100, 101, 110, 115, 101, 95, 53, 
    0, 1, 0, 0, 0, 4, 0, 0, 0, 82, 232, 255, 255, 4, 0, 0, 0, 7, 0, 0, 0, 105, 
    110, 112, 117, 116, 95, 51, 0, 2, 0, 0, 0, 52, 0, 0, 0, 4, 0, 0, 0, 220, 
    255, 255, 255, 16, 0, 0, 0, 4, 0, 0, 0, 19, 0, 0, 0, 67, 79, 78, 86, 69, 
    82, 83, 73, 79, 78, 95, 77, 69, 84, 65, 68, 65, 84, 65, 0, 8, 0, 12, 0, 8, 
    0, 4, 0, 8, 0, 0, 0, 15, 0, 0, 0, 4, 0, 0, 0, 19, 0, 0, 0, 109, 105, 110, 
    95, 114, 117, 110, 116, 105, 109, 101, 95, 118, 101, 114, 115, 105, 111, 
    110, 0, 17, 0, 0, 0, 164, 22, 0, 0, 156, 22, 0, 0, 132, 22, 0, 0, 84, 22, 
    0, 0, 4, 22, 0, 0, 244, 19, 0, 0, 100, 19, 0, 0, 84, 11, 0, 0, 68, 10, 0, 
    0, 180, 0, 0, 0, 172, 0, 0, 0, 164, 0, 0, 0, 156, 0, 0, 0, 148, 0, 0, 0, 
    140, 0, 0, 0, 108, 0, 0, 0, 4, 0, 0, 0, 10, 233, 255, 255, 4, 0, 0, 0, 88, 
    0, 0, 0, 12, 0, 0, 0, 8, 0, 14, 0, 8, 0, 4, 0, 8, 0, 0, 0, 16, 0, 0, 0, 40, 
    0, 0, 0, 0, 0, 6, 0, 8, 0, 4, 0, 6, 0, 0, 0, 4, 0, 0, 0, 1, 0, 0, 0, 235, 
    3, 0, 0, 0, 0, 10, 0, 16, 0, 12, 0, 8, 0, 4, 0, 10, 0, 0, 0, 2, 0, 0, 0, 2, 
    0, 0, 0, 4, 0, 0, 0, 6, 0, 0, 0, 50, 46, 49, 52, 46, 49, 0, 0, 110, 233, 
    255, 255, 4, 0, 0, 0, 16, 0, 0, 0, 49, 46, 49, 52, 46, 48, 0, 0, 0, 0, 0, 
    0, 0, 0, 0, 0, 88, 233, 255, 255, 92, 233, 255, 255, 96, 233, 255, 255, 
    100, 233, 255, 255, 104, 233, 255, 255, 158, 233, 255, 255, 4, 0, 0, 0, 
    128, 9, 0, 0, 15, 12, 242, 15, 1, 183, 32, 19, 22, 44, 33, 240, 231, 0, 29, 
    239, 39, 240, 29, 6, 6, 33, 20, 3, 11, 21, 5, 237, 12, 31, 223, 7, 249, 
    234, 6, 19, 17, 204, 242, 7, 5, 2, 24, 42, 41, 248, 234, 228, 1, 9, 35, 29, 
    12, 250, 25, 4, 22, 10, 243, 14, 223, 3, 235, 253, 20, 47, 24, 223, 222, 
    42, 29, 27, 4, 1, 17, 29, 11, 240, 20, 48, 35, 31, 15, 9, 222, 253, 20, 
    234, 226, 20, 6, 248, 32, 10, 30, 248, 234, 46, 23, 251, 229, 234, 37, 245, 
    224, 232, 232, 18, 234, 236, 5, 8, 254, 251, 238, 1, 17, 26, 18, 8, 226, 
    26, 241, 14, 21, 18, 13, 17, 252, 235, 17, 247, 22, 232, 44, 47, 20, 0, 21, 
    6, 6, 204, 21, 207, 253, 210, 237, 4, 18, 239, 209, 66, 11, 225, 42, 19, 
    26, 5, 234, 247, 38, 8, 233, 254, 49, 15, 232, 250, 31, 20, 241, 184, 236, 
    0, 246, 5, 40, 14, 253, 231, 9, 6, 56, 248, 237, 20, 254, 212, 240, 84, 7, 
    238, 246, 246, 235, 223, 254, 3, 33, 241, 238, 224, 207, 207, 13, 23, 239, 
    6, 11, 43, 29, 238, 4, 204, 18, 243, 208, 13, 250, 241, 26, 31, 246, 30, 
    255, 245, 241, 51, 3, 236, 18, 244, 225, 0, 214, 4, 15, 6, 230, 4, 48, 224, 
    230, 240, 224, 2, 207, 179, 227, 243, 18, 246, 227, 238, 251, 6, 2, 222, 
    21, 242, 6, 14, 5, 173, 213, 25, 234, 211, 228, 15, 255, 212, 50, 228, 252, 
    20, 255, 1, 227, 9, 7, 29, 12, 27, 41, 12, 245, 33, 252, 31, 24, 203, 46, 
    56, 0, 230, 22, 2, 25, 19, 43, 244, 19, 24, 240, 229, 232, 224, 244, 203, 
    25, 238, 3, 232, 225, 30, 250, 28, 19, 18, 3, 14, 21, 34, 229, 244, 244, 
    227, 13, 228, 2, 232, 18, 18, 224, 252, 0, 10, 251, 32, 18, 242, 0, 241, 
    37, 9, 9, 17, 14, 4, 61, 8, 207, 213, 3, 20, 17, 252, 5, 225, 50, 207, 216, 
    232, 243, 224, 7, 239, 26, 34, 7, 204, 219, 220, 235, 82, 39, 31, 246, 18, 
    5, 241, 254, 34, 254, 23, 227, 239, 255, 44, 214, 232, 29, 35, 17, 241, 4, 
    7, 5, 152, 247, 218, 24, 3, 217, 241, 4, 252, 23, 231, 18, 247, 255, 23, 
    243, 213, 233, 19, 4, 32, 30, 31, 17, 219, 15, 240, 242, 224, 10, 20, 26, 
    14, 14, 10, 254, 8, 60, 5, 252, 49, 31, 44, 224, 230, 215, 49, 254, 212, 
    233, 14, 3, 6, 10, 41, 13, 21, 23, 222, 27, 9, 243, 253, 250, 2, 40, 46, 2, 
    14, 40, 226, 12, 255, 38, 236, 217, 243, 243, 11, 220, 1, 220, 255, 2, 226, 
    35, 228, 50, 245, 9, 243, 208, 192, 235, 57, 181, 35, 18, 34, 250, 227, 22, 
    222, 231, 11, 14, 17, 228, 16, 253, 241, 20, 19, 1, 0, 251, 36, 36, 29, 
    234, 238, 233, 46, 255, 244, 8, 12, 246, 28, 55, 41, 32, 31, 13, 15, 250, 
    245, 253, 18, 6, 22, 33, 25, 16, 244, 225, 9, 20, 11, 32, 12, 29, 241, 0, 
    31, 239, 243, 255, 222, 18, 3, 12, 3, 245, 16, 0, 225, 238, 3, 8, 229, 255, 
    47, 232, 239, 8, 7, 232, 241, 18, 4, 241, 30, 26, 214, 13, 25, 41, 28, 250, 
    65, 245, 4, 3, 225, 247, 27, 11, 232, 13, 40, 7, 209, 15, 216, 234, 200, 
    215, 69, 5, 55, 0, 10, 253, 32, 230, 233, 33, 12, 230, 30, 24, 219, 244, 2, 
    251, 40, 40, 14, 14, 13, 2, 6, 255, 255, 34, 7, 48, 49, 217, 217, 32, 28, 
    13, 16, 20, 254, 4, 21, 252, 12, 246, 240, 233, 15, 199, 16, 15, 248, 252, 
    9, 255, 241, 231, 244, 61, 246, 55, 50, 38, 27, 208, 9, 231, 34, 4, 234, 
    10, 236, 221, 55, 38, 23, 28, 2, 1, 250, 223, 227, 5, 223, 223, 176, 10, 
    198, 235, 16, 248, 251, 15, 200, 207, 17, 237, 164, 245, 49, 255, 222, 26, 
    10, 16, 251, 247, 239, 220, 223, 7, 209, 216, 43, 4, 46, 255, 245, 31, 14, 
    203, 6, 4, 167, 46, 228, 226, 4, 121, 227, 239, 229, 223, 225, 210, 223, 
    240, 191, 193, 234, 236, 14, 23, 200, 31, 246, 210, 238, 192, 23, 17, 233, 
    18, 40, 211, 20, 11, 236, 22, 217, 55, 10, 232, 225, 223, 25, 20, 243, 1, 
    12, 238, 15, 29, 251, 242, 48, 31, 233, 249, 22, 219, 1, 249, 255, 250, 
    233, 238, 34, 37, 39, 6, 17, 19, 7, 25, 50, 6, 32, 251, 255, 42, 245, 23, 
    22, 9, 15, 17, 229, 6, 29, 27, 238, 7, 4, 234, 240, 25, 34, 228, 10, 236, 
    14, 20, 224, 13, 0, 31, 203, 253, 218, 19, 5, 253, 221, 18, 250, 241, 239, 
    255, 229, 10, 8, 16, 17, 19, 212, 239, 244, 5, 213, 64, 38, 48, 233, 37, 
    221, 10, 28, 208, 11, 237, 215, 20, 23, 18, 225, 233, 253, 232, 198, 225, 
    241, 22, 206, 48, 227, 231, 223, 2, 13, 18, 253, 8, 7, 22, 255, 41, 26, 25, 
    43, 255, 19, 246, 209, 35, 202, 235, 250, 231, 249, 218, 14, 27, 230, 227, 
    32, 0, 230, 42, 228, 196, 255, 11, 1, 216, 26, 0, 21, 3, 7, 245, 225, 12, 
    6, 16, 26, 30, 86, 23, 35, 208, 246, 238, 32, 218, 190, 255, 206, 1, 38, 
    25, 6, 234, 248, 214, 203, 229, 20, 232, 250, 255, 244, 205, 22, 0, 219, 
    216, 1, 1, 229, 12, 222, 46, 16, 23, 55, 7, 12, 239, 214, 41, 57, 18, 242, 
    11, 242, 24, 24, 33, 248, 252, 45, 10, 22, 233, 37, 31, 12, 15, 15, 42, 
    253, 15, 244, 211, 29, 246, 10, 28, 235, 31, 19, 247, 248, 12, 9, 25, 29, 
    0, 5, 70, 14, 29, 235, 22, 215, 229, 253, 239, 235, 210, 60, 251, 25, 216, 
    16, 13, 235, 16, 199, 249, 7, 208, 27, 243, 255, 250, 23, 237, 249, 7, 231, 
    8, 28, 14, 240, 243, 248, 4, 10, 232, 16, 2, 223, 14, 44, 25, 25, 12, 221, 
    255, 223, 39, 11, 224, 213, 229, 214, 6, 1, 238, 9, 36, 247, 26, 251, 39, 
    29, 9, 56, 6, 28, 241, 23, 247, 255, 38, 1, 16, 17, 230, 59, 35, 11, 243, 
    15, 4, 48, 10, 255, 254, 0, 231, 2, 22, 26, 233, 213, 205, 239, 12, 5, 215, 
    24, 2, 210, 234, 241, 35, 13, 39, 22, 19, 221, 37, 39, 192, 219, 12, 218, 
    17, 8, 223, 9, 240, 36, 166, 19, 0, 190, 243, 129, 243, 163, 226, 234, 102, 
    252, 234, 11, 229, 221, 255, 221, 30, 15, 249, 233, 21, 10, 14, 248, 12, 
    33, 2, 251, 203, 38, 24, 231, 236, 13, 18, 0, 253, 255, 2, 9, 244, 162, 30, 
    203, 253, 245, 67, 25, 9, 245, 16, 233, 201, 20, 242, 248, 13, 27, 218, 
    251, 227, 215, 248, 28, 30, 231, 197, 213, 248, 193, 198, 42, 4, 35, 212, 
    247, 3, 17, 10, 220, 228, 242, 12, 39, 3, 224, 247, 18, 32, 29, 215, 19, 
    16, 221, 246, 17, 34, 3, 246, 246, 19, 65, 17, 240, 1, 11, 234, 230, 8, 54, 
    16, 235, 38, 15, 5, 6, 7, 22, 59, 237, 6, 244, 247, 5, 230, 15, 232, 235, 
    5, 211, 39, 11, 225, 11, 235, 251, 24, 192, 218, 205, 241, 194, 10, 212, 
    224, 39, 236, 66, 16, 13, 49, 238, 28, 227, 240, 10, 207, 230, 239, 5, 243, 
    239, 27, 7, 31, 237, 18, 4, 27, 33, 5, 241, 229, 253, 0, 22, 13, 201, 248, 
    4, 251, 62, 47, 54, 33, 41, 231, 224, 16, 14, 255, 15, 210, 246, 27, 6, 5, 
    10, 253, 17, 0, 5, 22, 17, 251, 179, 225, 251, 246, 222, 244, 2, 26, 225, 
    252, 225, 230, 228, 223, 248, 8, 5, 235, 69, 0, 207, 231, 238, 223, 31, 7, 
    34, 24, 20, 23, 19, 216, 228, 24, 5, 255, 225, 16, 9, 240, 16, 235, 28, 
    214, 234, 249, 49, 40, 252, 26, 238, 14, 5, 230, 226, 219, 217, 1, 202, 34, 
    1, 7, 6, 250, 226, 47, 2, 230, 33, 221, 231, 215, 31, 235, 8, 227, 154, 28, 
    233, 247, 245, 4, 254, 255, 11, 19, 222, 248, 213, 3, 235, 239, 242, 220, 
    250, 253, 232, 228, 12, 254, 42, 23, 19, 248, 38, 252, 236, 213, 246, 21, 
    30, 6, 253, 252, 47, 13, 244, 5, 31, 21, 250, 26, 188, 53, 23, 238, 213, 
    232, 241, 254, 34, 250, 251, 22, 243, 3, 55, 7, 18, 56, 248, 32, 238, 217, 
    18, 3, 1, 254, 9, 42, 9, 1, 4, 11, 224, 25, 247, 23, 254, 2, 250, 3, 15, 
    36, 239, 245, 225, 236, 22, 17, 231, 16, 196, 234, 2, 245, 1, 19, 10, 208, 
    23, 239, 228, 210, 247, 247, 234, 25, 247, 34, 28, 19, 53, 45, 252, 239, 6, 
    28, 246, 244, 227, 14, 11, 12, 35, 30, 7, 251, 21, 15, 21, 38, 11, 248, 
    253, 20, 224, 44, 247, 249, 4, 168, 218, 2, 228, 229, 250, 232, 8, 236, 
    207, 225, 225, 3, 245, 223, 5, 253, 3, 18, 220, 34, 228, 5, 239, 9, 5, 18, 
    27, 234, 230, 227, 248, 13, 6, 252, 219, 10, 239, 0, 238, 16, 222, 251, 7, 
    24, 229, 2, 229, 10, 25, 220, 5, 51, 220, 240, 201, 254, 237, 228, 18, 19, 
    243, 27, 49, 250, 224, 243, 244, 37, 33, 9, 245, 29, 28, 5, 241, 241, 4, 
    248, 14, 20, 10, 28, 247, 241, 28, 236, 0, 11, 15, 11, 15, 1, 24, 8, 255, 
    2, 241, 231, 244, 14, 213, 21, 27, 8, 221, 222, 238, 43, 192, 183, 243, 
    232, 207, 4, 214, 15, 221, 221, 212, 13, 61, 10, 63, 245, 8, 211, 0, 24, 
    247, 243, 219, 230, 7, 15, 17, 254, 23, 49, 27, 196, 224, 46, 229, 8, 18, 
    254, 12, 52, 209, 247, 18, 25, 206, 3, 237, 16, 245, 17, 172, 10, 35, 45, 
    221, 253, 216, 13, 238, 10, 227, 245, 32, 186, 220, 62, 227, 235, 16, 232, 
    37, 176, 214, 10, 4, 250, 240, 18, 20, 234, 8, 44, 208, 21, 19, 24, 17, 
    233, 54, 21, 10, 239, 212, 59, 218, 19, 234, 3, 232, 243, 241, 240, 216, 
    232, 28, 3, 35, 4, 233, 13, 34, 50, 253, 234, 227, 238, 20, 255, 244, 24, 
    242, 253, 16, 34, 244, 44, 34, 1, 2, 18, 52, 186, 6, 17, 19, 234, 212, 24, 
    236, 4, 251, 65, 35, 26, 25, 34, 227, 252, 230, 17, 208, 48, 35, 16, 17, 
    254, 35, 239, 227, 15, 20, 254, 223, 42, 255, 241, 4, 27, 229, 7, 35, 255, 
    242, 10, 53, 11, 216, 234, 13, 236, 29, 201, 232, 8, 46, 206, 223, 205, 4, 
    20, 35, 1, 203, 209, 8, 229, 1, 19, 27, 240, 230, 41, 244, 39, 240, 216, 
    23, 10, 232, 0, 198, 41, 42, 236, 6, 228, 248, 240, 21, 45, 64, 220, 25, 
    255, 38, 255, 13, 9, 169, 3, 226, 211, 233, 253, 17, 232, 21, 241, 220, 
    237, 29, 224, 24, 225, 221, 213, 218, 33, 41, 12, 250, 241, 2, 16, 40, 8, 
    9, 198, 19, 242, 14, 249, 27, 2, 12, 65, 7, 23, 35, 253, 254, 20, 22, 5, 
    252, 13, 247, 28, 224, 232, 254, 6, 12, 5, 245, 17, 244, 55, 247, 17, 14, 
    255, 228, 249, 45, 245, 229, 18, 1, 230, 254, 201, 11, 220, 136, 36, 21, 
    231, 18, 70, 9, 219, 15, 8, 240, 20, 193, 253, 32, 203, 213, 20, 17, 252, 
    238, 32, 220, 29, 250, 220, 40, 247, 0, 20, 18, 209, 238, 20, 254, 245, 
    180, 7, 9, 236, 215, 239, 2, 70, 9, 0, 251, 255, 251, 67, 36, 37, 18, 251, 
    21, 225, 237, 15, 232, 225, 5, 16, 35, 13, 55, 57, 1, 255, 231, 19, 199, 
    250, 12, 17, 220, 43, 16, 226, 247, 15, 240, 244, 10, 2, 235, 29, 234, 32, 
    24, 10, 5, 38, 233, 229, 13, 30, 232, 237, 213, 9, 10, 0, 3, 39, 13, 22, 8, 
    8, 48, 206, 207, 176, 243, 248, 2, 29, 32, 13, 28, 33, 39, 28, 1, 3, 224, 
    229, 40, 18, 235, 18, 236, 1, 22, 15, 203, 19, 37, 36, 8, 213, 20, 210, 
    233, 12, 33, 22, 22, 230, 216, 9, 236, 252, 9, 246, 48, 29, 0, 247, 14, 
    236, 217, 221, 24, 251, 33, 241, 29, 34, 23, 48, 9, 9, 225, 210, 24, 243, 
    249, 25, 226, 27, 234, 28, 89, 5, 46, 236, 205, 0, 228, 6, 197, 238, 215, 
    23, 0, 51, 253, 227, 226, 1, 228, 237, 3, 19, 8, 13, 249, 44, 196, 16, 238, 
    255, 60, 253, 253, 252, 228, 214, 248, 22, 73, 14, 205, 7, 205, 223, 216, 
    0, 233, 213, 201, 255, 210, 239, 251, 3, 10, 235, 252, 35, 15, 19, 38, 244, 
    7, 23, 252, 9, 63, 2, 227, 16, 2, 209, 44, 41, 19, 13, 45, 174, 253, 15, 
    214, 19, 207, 64, 2, 215, 211, 2, 249, 224, 6, 0, 248, 253, 233, 15, 11, 
    42, 243, 230, 5, 6, 254, 232, 49, 23, 229, 1, 35, 28, 19, 59, 43, 225, 37, 
    30, 9, 28, 220, 253, 236, 240, 10, 209, 25, 249, 255, 237, 236, 231, 2, 
    245, 255, 24, 7, 1, 10, 226, 228, 248, 250, 23, 230, 52, 224, 241, 36, 254, 
    38, 13, 44, 209, 14, 14, 2, 226, 232, 7, 6, 224, 252, 25, 254, 10, 209, 
    250, 199, 27, 9, 5, 12, 208, 215, 212, 195, 10, 1, 50, 22, 255, 230, 6, 
    236, 2, 243, 6, 42, 12, 246, 224, 83, 28, 30, 213, 2, 228, 8, 244, 204, 5, 
    16, 17, 3, 254, 38, 241, 32, 41, 226, 9, 7, 3, 208, 233, 195, 2, 2, 17, 16, 
    4, 22, 40, 223, 254, 35, 6, 149, 212, 16, 5, 213, 255, 55, 238, 254, 17, 
    249, 25, 29, 16, 244, 225, 7, 4, 246, 31, 17, 31, 1, 16, 33, 24, 22, 9, 
    250, 18, 17, 242, 40, 228, 247, 255, 35, 223, 0, 253, 231, 42, 243, 255, 
    255, 4, 0, 0, 0, 0, 1, 0, 0, 207, 255, 255, 255, 231, 255, 255, 255, 238, 
    255, 255, 255, 8, 0, 0, 0, 248, 255, 255, 255, 7, 0, 0, 0, 254, 255, 255, 
    255, 237, 255, 255, 255, 247, 255, 255, 255, 245, 255, 255, 255, 255, 255, 
    255, 255, 236, 255, 255, 255, 246, 255, 255, 255, 235, 255, 255, 255, 225, 
    255, 255, 255, 252, 255, 255, 255, 247, 255, 255, 255, 249, 255, 255, 255, 
    10, 0, 0, 0, 3, 0, 0, 0, 6, 0, 0, 0, 239, 255, 255, 255, 3, 0, 0, 0, 246, 
    255, 255, 255, 254, 255, 255, 255, 6, 0, 0, 0, 222, 255, 255, 255, 255, 
    255, 255, 255, 1, 0, 0, 0, 2, 0, 0, 0, 4, 0, 0, 0, 255, 255, 255, 255, 250, 
    255, 255, 255, 2, 0, 0, 0, 243, 255, 255, 255, 8, 0, 0, 0, 239, 255, 255, 
    255, 12, 0, 0, 0, 234, 255, 255, 255, 225, 255, 255, 255, 254, 255, 255, 
    255, 250, 255, 255, 255, 254, 255, 255, 255, 222, 255, 255, 255, 11, 0, 0, 
    0, 5, 0, 0, 0, 251, 255, 255, 255, 245, 255, 255, 255, 233, 255, 255, 255, 
    244, 255, 255, 255, 8, 0, 0, 0, 217, 255, 255, 255, 2, 0, 0, 0, 243, 255, 
    255, 255, 243, 255, 255, 255, 244, 255, 255, 255, 255, 255, 255, 255, 251, 
    255, 255, 255, 7, 0, 0, 0, 1, 0, 0, 0, 248, 255, 255, 255, 4, 0, 0, 0, 241, 
    255, 255, 255, 228, 255, 255, 255, 54, 244, 255, 255, 4, 0, 0, 0, 0, 8, 0, 
    0, 222, 251, 244, 203, 231, 19, 30, 236, 250, 241, 20, 215, 34, 8, 22, 235, 
    30, 246, 19, 236, 220, 53, 226, 38, 239, 29, 21, 15, 249, 71, 206, 233, 
    240, 216, 224, 251, 238, 66, 16, 29, 231, 22, 3, 19, 247, 219, 232, 4, 20, 
    234, 36, 10, 15, 236, 230, 194, 246, 244, 13, 13, 251, 15, 238, 211, 235, 
    226, 216, 40, 247, 71, 11, 240, 6, 243, 236, 222, 246, 254, 6, 64, 15, 235, 
    28, 25, 1, 255, 15, 235, 239, 248, 17, 25, 1, 28, 4, 32, 81, 55, 219, 46, 
    218, 11, 22, 229, 248, 8, 35, 201, 14, 241, 255, 217, 226, 5, 25, 205, 8, 
    244, 222, 239, 6, 57, 250, 229, 2, 21, 6, 212, 247, 224, 242, 28, 9, 220, 
    219, 227, 18, 209, 7, 4, 7, 224, 17, 218, 251, 3, 38, 242, 227, 253, 8, 33, 
    242, 222, 210, 32, 247, 26, 14, 46, 248, 23, 247, 16, 14, 30, 254, 234, 
    221, 21, 2, 231, 8, 7, 247, 243, 218, 49, 23, 218, 239, 238, 5, 215, 51, 
    246, 10, 226, 26, 246, 223, 234, 18, 25, 14, 64, 227, 4, 233, 236, 22, 39, 
    20, 31, 6, 7, 45, 254, 222, 63, 19, 30, 224, 8, 247, 7, 31, 199, 224, 218, 
    234, 247, 70, 51, 2, 32, 30, 242, 15, 224, 216, 4, 16, 187, 254, 28, 39, 
    43, 33, 228, 247, 46, 9, 19, 25, 255, 239, 4, 9, 247, 7, 16, 209, 243, 24, 
    228, 255, 6, 250, 7, 255, 0, 25, 28, 252, 222, 14, 245, 215, 15, 237, 209, 
    226, 5, 36, 197, 25, 233, 209, 88, 25, 86, 38, 51, 245, 36, 191, 225, 250, 
    14, 23, 248, 9, 42, 24, 38, 25, 33, 211, 227, 225, 226, 241, 31, 23, 247, 
    14, 21, 240, 0, 7, 175, 243, 220, 61, 6, 30, 223, 242, 51, 43, 252, 19, 
    201, 214, 206, 252, 184, 237, 224, 254, 11, 255, 14, 22, 212, 15, 239, 218, 
    249, 246, 29, 234, 255, 219, 228, 13, 11, 16, 33, 163, 13, 0, 209, 0, 247, 
    34, 229, 238, 31, 245, 0, 230, 3, 17, 201, 244, 217, 231, 198, 228, 35, 2, 
    227, 7, 216, 213, 227, 254, 22, 26, 28, 226, 14, 233, 31, 9, 14, 11, 5, 
    246, 246, 253, 52, 41, 209, 35, 3, 229, 36, 4, 247, 247, 36, 199, 5, 227, 
    204, 43, 225, 225, 246, 24, 255, 231, 49, 251, 59, 251, 254, 7, 1, 221, 
    234, 21, 28, 221, 241, 194, 29, 28, 28, 247, 225, 29, 233, 253, 255, 42, 
    233, 205, 206, 240, 218, 193, 24, 45, 12, 245, 2, 212, 1, 237, 47, 25, 218, 
    236, 246, 8, 225, 9, 228, 239, 254, 49, 248, 28, 225, 243, 248, 28, 21, 
    243, 25, 9, 251, 25, 3, 19, 7, 30, 240, 215, 245, 243, 238, 23, 253, 241, 
    37, 15, 238, 240, 14, 52, 255, 219, 53, 55, 6, 40, 7, 13, 239, 227, 246, 
    234, 1, 10, 253, 25, 210, 221, 42, 50, 18, 220, 43, 246, 12, 234, 230, 221, 
    25, 251, 7, 15, 225, 218, 19, 246, 215, 228, 238, 7, 2, 234, 44, 21, 19, 
    231, 4, 34, 243, 222, 212, 6, 239, 4, 184, 17, 27, 42, 17, 16, 18, 206, 23, 
    218, 36, 224, 214, 43, 213, 9, 7, 252, 203, 8, 249, 40, 52, 21, 7, 212, 
    240, 214, 4, 253, 22, 232, 42, 244, 248, 170, 231, 4, 35, 223, 15, 227, 
    220, 238, 42, 232, 16, 54, 229, 237, 44, 21, 239, 232, 19, 243, 192, 33, 
    214, 205, 254, 59, 213, 220, 236, 186, 247, 15, 242, 243, 227, 35, 4, 248, 
    18, 245, 231, 38, 10, 229, 236, 40, 1, 22, 237, 12, 17, 37, 229, 222, 248, 
    2, 173, 240, 243, 4, 21, 66, 222, 237, 254, 27, 17, 24, 252, 218, 251, 215, 
    29, 26, 58, 201, 251, 16, 244, 76, 241, 231, 194, 196, 0, 253, 26, 49, 72, 
    196, 255, 40, 33, 193, 227, 5, 33, 230, 253, 214, 17, 244, 245, 229, 16, 
    22, 226, 45, 221, 16, 230, 242, 0, 202, 172, 189, 249, 239, 243, 237, 20, 
    30, 231, 10, 46, 228, 249, 231, 220, 32, 236, 1, 220, 0, 21, 233, 240, 244, 
    36, 16, 244, 1, 243, 36, 222, 22, 226, 232, 20, 45, 32, 254, 65, 218, 17, 
    237, 19, 10, 5, 244, 31, 23, 214, 242, 48, 56, 232, 221, 63, 247, 214, 248, 
    242, 250, 22, 254, 250, 231, 15, 10, 38, 21, 226, 27, 234, 4, 24, 243, 14, 
    248, 235, 248, 221, 244, 34, 249, 51, 20, 249, 234, 27, 6, 19, 221, 229, 
    223, 1, 252, 20, 21, 251, 28, 8, 213, 1, 0, 230, 31, 242, 219, 214, 248, 
    33, 20, 10, 44, 4, 7, 212, 27, 251, 1, 36, 4, 15, 230, 249, 27, 199, 18, 
    26, 26, 254, 22, 8, 8, 243, 249, 232, 236, 245, 39, 15, 241, 219, 17, 220, 
    231, 13, 226, 4, 236, 30, 45, 221, 14, 18, 6, 210, 22, 222, 219, 222, 245, 
    43, 245, 2, 34, 247, 54, 211, 241, 236, 224, 250, 237, 231, 231, 232, 242, 
    231, 42, 249, 32, 207, 253, 39, 8, 249, 219, 236, 245, 26, 30, 57, 238, 
    228, 33, 11, 27, 240, 3, 241, 35, 228, 222, 240, 228, 52, 248, 254, 225, 
    31, 18, 12, 13, 5, 206, 30, 21, 251, 31, 216, 225, 37, 6, 4, 228, 255, 226, 
    196, 26, 7, 224, 248, 11, 217, 221, 198, 1, 29, 55, 25, 25, 225, 0, 234, 
    202, 244, 19, 225, 33, 219, 230, 239, 27, 239, 254, 16, 240, 45, 36, 26, 
    214, 242, 0, 210, 226, 28, 43, 39, 4, 229, 4, 24, 1, 238, 44, 14, 218, 230, 
    4, 242, 238, 4, 216, 9, 35, 22, 2, 225, 6, 11, 224, 250, 248, 68, 31, 38, 
    249, 46, 24, 12, 22, 233, 221, 41, 9, 207, 251, 0, 4, 238, 254, 9, 255, 
    246, 16, 4, 243, 238, 65, 53, 13, 3, 223, 242, 41, 206, 231, 202, 240, 246, 
    25, 248, 52, 238, 254, 2, 16, 245, 249, 248, 1, 42, 221, 19, 238, 64, 220, 
    224, 237, 241, 208, 235, 31, 28, 230, 5, 37, 37, 22, 244, 19, 18, 28, 225, 
    13, 214, 18, 241, 231, 252, 27, 20, 28, 20, 221, 8, 26, 20, 41, 236, 249, 
    247, 217, 72, 227, 16, 18, 4, 245, 7, 243, 21, 50, 231, 210, 4, 237, 39, 
    30, 239, 250, 224, 14, 17, 10, 207, 214, 237, 240, 211, 43, 235, 18, 52, 9, 
    50, 52, 8, 16, 251, 242, 221, 12, 191, 22, 213, 226, 8, 252, 34, 25, 38, 
    249, 245, 254, 207, 229, 25, 64, 206, 248, 238, 237, 251, 254, 206, 29, 
    205, 22, 30, 34, 229, 251, 5, 20, 10, 231, 206, 23, 10, 246, 29, 228, 21, 
    22, 12, 44, 31, 243, 242, 17, 234, 232, 253, 239, 237, 16, 247, 4, 56, 252, 
    27, 11, 19, 26, 2, 2, 241, 233, 37, 207, 2, 252, 14, 225, 60, 233, 205, 35, 
    235, 12, 29, 249, 233, 64, 249, 30, 253, 229, 245, 14, 54, 40, 3, 245, 39, 
    38, 8, 5, 31, 246, 3, 30, 30, 23, 23, 223, 34, 17, 9, 27, 17, 7, 28, 224, 
    221, 209, 40, 21, 237, 208, 216, 252, 4, 251, 218, 24, 249, 22, 30, 46, 37, 
    12, 39, 6, 242, 13, 4, 229, 231, 31, 232, 231, 242, 246, 21, 6, 32, 47, 
    237, 248, 1, 236, 228, 225, 7, 236, 8, 16, 215, 55, 255, 232, 32, 246, 42, 
    253, 4, 228, 252, 192, 241, 4, 25, 221, 255, 15, 10, 219, 29, 210, 243, 33, 
    6, 2, 19, 1, 30, 229, 43, 21, 254, 43, 230, 215, 253, 26, 220, 201, 232, 
    226, 4, 2, 1, 45, 194, 39, 251, 223, 56, 17, 224, 12, 1, 2, 235, 6, 201, 
    231, 227, 37, 30, 8, 204, 186, 202, 0, 212, 232, 27, 3, 236, 25, 239, 25, 
    46, 248, 3, 232, 2, 3, 240, 21, 232, 41, 34, 249, 241, 231, 255, 215, 253, 
    242, 25, 224, 247, 51, 48, 42, 54, 213, 9, 254, 3, 244, 232, 7, 1, 15, 238, 
    255, 44, 42, 33, 223, 18, 244, 15, 53, 234, 230, 232, 21, 26, 196, 229, 
    221, 248, 23, 236, 243, 4, 6, 253, 57, 216, 32, 214, 23, 40, 29, 247, 22, 
    237, 29, 6, 8, 233, 224, 59, 241, 249, 47, 183, 29, 230, 211, 199, 24, 22, 
    78, 26, 242, 55, 200, 31, 238, 19, 202, 1, 28, 238, 18, 17, 28, 12, 249, 
    33, 231, 242, 9, 9, 43, 255, 248, 240, 2, 247, 226, 251, 175, 4, 254, 240, 
    236, 242, 223, 222, 43, 245, 241, 252, 19, 0, 240, 64, 13, 27, 251, 39, 
    255, 1, 13, 46, 23, 27, 68, 238, 239, 196, 213, 26, 42, 235, 79, 3, 0, 16, 
    237, 230, 250, 31, 211, 28, 8, 210, 50, 233, 229, 82, 30, 25, 242, 50, 4, 
    10, 36, 17, 254, 41, 253, 20, 206, 2, 2, 41, 53, 14, 227, 194, 232, 243, 
    42, 255, 47, 2, 226, 25, 251, 206, 17, 242, 237, 24, 13, 217, 28, 31, 18, 
    0, 225, 239, 229, 6, 213, 11, 237, 36, 9, 44, 60, 65, 1, 0, 194, 26, 12, 
    251, 239, 23, 0, 238, 248, 20, 244, 239, 10, 20, 22, 250, 37, 233, 251, 65, 
    35, 35, 10, 232, 233, 25, 52, 230, 215, 14, 227, 12, 254, 35, 201, 53, 238, 
    234, 226, 21, 225, 46, 224, 251, 221, 251, 193, 236, 60, 208, 252, 19, 19, 
    47, 221, 28, 26, 234, 11, 252, 33, 25, 40, 201, 6, 243, 222, 235, 41, 26, 
    247, 222, 34, 11, 7, 36, 221, 204, 13, 26, 15, 0, 237, 210, 234, 249, 49, 
    4, 10, 207, 202, 248, 11, 4, 238, 8, 13, 234, 10, 24, 4, 55, 230, 0, 227, 
    240, 243, 47, 57, 47, 226, 40, 216, 234, 19, 244, 26, 7, 230, 8, 239, 0, 
    27, 47, 41, 245, 207, 237, 247, 46, 211, 254, 206, 247, 4, 3, 22, 68, 19, 
    233, 1, 44, 49, 19, 7, 42, 214, 246, 222, 75, 239, 27, 1, 32, 27, 241, 1, 
    41, 3, 170, 210, 239, 243, 2, 16, 252, 24, 230, 254, 11, 29, 183, 0, 240, 
    241, 225, 5, 7, 215, 106, 248, 26, 8, 23, 198, 31, 129, 200, 233, 206, 249, 
    29, 255, 26, 57, 246, 240, 27, 195, 27, 195, 180, 226, 191, 38, 13, 233, 
    32, 238, 251, 15, 250, 217, 206, 223, 26, 16, 234, 17, 236, 225, 237, 33, 
    15, 233, 0, 250, 43, 25, 253, 228, 8, 180, 55, 210, 215, 175, 237, 16, 237, 
    248, 195, 253, 57, 20, 62, 231, 250, 51, 195, 22, 169, 240, 244, 14, 246, 
    241, 246, 237, 227, 7, 30, 13, 2, 3, 19, 205, 21, 241, 199, 63, 16, 37, 22, 
    38, 213, 30, 9, 84, 37, 18, 20, 209, 237, 25, 39, 219, 15, 201, 19, 222, 
    24, 6, 9, 229, 214, 229, 224, 246, 14, 245, 235, 212, 221, 22, 253, 249, 3, 
    253, 70, 4, 239, 38, 33, 13, 236, 9, 242, 240, 253, 38, 7, 56, 248, 2, 9, 
    213, 242, 209, 7, 15, 229, 40, 236, 230, 46, 1, 240, 28, 218, 229, 241, 45, 
    11, 45, 218, 224, 6, 254, 217, 5, 18, 30, 1, 26, 210, 1, 11, 25, 26, 21, 
    226, 236, 52, 255, 7, 40, 11, 32, 246, 250, 235, 19, 3, 3, 3, 28, 11, 17, 
    23, 42, 72, 216, 228, 2, 0, 226, 11, 1, 16, 55, 8, 244, 43, 35, 8, 13, 24, 
    21, 228, 24, 246, 240, 54, 9, 55, 229, 226, 3, 36, 48, 5, 215, 210, 241, 
    16, 2, 44, 30, 238, 238, 24, 32, 216, 14, 1, 254, 24, 213, 228, 42, 13, 
    240, 24, 2, 2, 243, 13, 231, 3, 212, 27, 50, 46, 25, 10, 15, 35, 15, 46, 
    219, 3, 252, 0, 28, 16, 2, 0, 37, 25, 239, 223, 254, 238, 26, 221, 29, 237, 
    216, 249, 235, 227, 192, 41, 247, 246, 66, 252, 255, 255, 4, 0, 0, 0, 128, 
    0, 0, 0, 63, 0, 0, 0, 247, 255, 255, 255, 0, 0, 0, 0, 203, 255, 255, 255, 
    75, 0, 0, 0, 222, 255, 255, 255, 35, 0, 0, 0, 240, 255, 255, 255, 29, 0, 0, 
    0, 51, 0, 0, 0, 92, 0, 0, 0, 15, 0, 0, 0, 47, 0, 0, 0, 246, 255, 255, 255, 
    19, 0, 0, 0, 12, 0, 0, 0, 28, 0, 0, 0, 17, 0, 0, 0, 53, 0, 0, 0, 247, 255, 
    255, 255, 64, 0, 0, 0, 45, 0, 0, 0, 68, 0, 0, 0, 39, 0, 0, 0, 255, 255, 
    255, 255, 64, 0, 0, 0, 88, 0, 0, 0, 224, 255, 255, 255, 13, 0, 0, 0, 26, 0, 
    0, 0, 22, 0, 0, 0, 49, 0, 0, 0, 206, 252, 255, 255, 4, 0, 0, 0, 0, 2, 0, 0, 
    57, 13, 42, 228, 49, 200, 54, 236, 228, 183, 65, 11, 203, 233, 18, 252, 
    234, 254, 40, 33, 1, 225, 38, 17, 81, 216, 8, 218, 29, 197, 208, 75, 61, 
    23, 53, 215, 219, 236, 216, 54, 245, 234, 233, 45, 242, 66, 209, 79, 244, 
    204, 67, 16, 249, 56, 218, 3, 88, 235, 79, 197, 236, 239, 37, 33, 244, 68, 
    238, 56, 252, 208, 6, 61, 15, 196, 249, 248, 62, 90, 239, 82, 5, 213, 237, 
    62, 252, 234, 216, 221, 47, 235, 37, 23, 194, 11, 236, 29, 57, 231, 65, 19, 
    21, 67, 252, 30, 72, 31, 9, 225, 50, 30, 240, 203, 53, 27, 212, 6, 12, 201, 
    205, 212, 230, 22, 254, 61, 20, 46, 255, 29, 1, 67, 234, 4, 29, 232, 253, 
    62, 249, 220, 56, 37, 49, 57, 185, 27, 48, 21, 16, 57, 181, 55, 30, 19, 25, 
    179, 79, 203, 229, 217, 13, 11, 51, 25, 208, 62, 39, 230, 238, 44, 69, 94, 
    203, 254, 49, 183, 76, 31, 23, 56, 219, 36, 78, 190, 9, 37, 6, 40, 240, 77, 
    93, 8, 52, 199, 46, 170, 59, 254, 64, 245, 202, 175, 45, 100, 9, 195, 242, 
    244, 51, 219, 240, 4, 44, 52, 13, 224, 194, 184, 19, 16, 16, 45, 39, 79, 
    206, 235, 19, 76, 15, 49, 13, 187, 39, 10, 5, 187, 72, 4, 255, 78, 215, 17, 
    15, 221, 15, 214, 255, 51, 45, 31, 15, 197, 7, 14, 14, 255, 2, 254, 30, 80, 
    221, 207, 19, 211, 11, 219, 250, 4, 91, 63, 236, 232, 21, 56, 250, 193, 3, 
    26, 212, 61, 22, 246, 28, 203, 9, 238, 197, 225, 28, 50, 240, 75, 52, 252, 
    51, 7, 18, 23, 216, 197, 24, 28, 35, 88, 214, 37, 14, 193, 233, 251, 189, 
    66, 36, 241, 93, 254, 29, 216, 225, 32, 28, 252, 94, 236, 32, 184, 35, 34, 
    186, 236, 233, 234, 19, 200, 217, 237, 14, 217, 214, 14, 205, 179, 6, 27, 
    195, 194, 19, 189, 20, 118, 20, 68, 213, 50, 81, 212, 211, 202, 52, 239, 
    199, 241, 33, 118, 17, 241, 58, 255, 26, 20, 7, 33, 14, 209, 127, 195, 196, 
    214, 171, 73, 230, 71, 83, 0, 204, 241, 232, 49, 213, 29, 223, 1, 233, 43, 
    226, 187, 79, 71, 41, 108, 14, 222, 46, 211, 225, 224, 175, 29, 218, 3, 72, 
    192, 71, 245, 5, 17, 16, 255, 251, 236, 215, 213, 16, 63, 17, 22, 224, 25, 
    191, 14, 1, 243, 227, 222, 14, 4, 32, 25, 89, 224, 48, 255, 187, 9, 205, 
    97, 225, 240, 213, 235, 218, 6, 244, 219, 51, 237, 205, 0, 72, 96, 9, 190, 
    20, 182, 82, 1, 224, 66, 55, 242, 105, 218, 10, 50, 194, 26, 41, 7, 52, 59, 
    23, 31, 23, 230, 233, 24, 210, 214, 255, 4, 10, 13, 191, 73, 232, 64, 196, 
    236, 207, 2, 199, 251, 219, 211, 194, 223, 240, 214, 73, 241, 20, 244, 24, 
    12, 218, 254, 255, 255, 4, 0, 0, 0, 64, 0, 0, 0, 31, 0, 0, 0, 17, 0, 0, 0, 
    0, 0, 0, 0, 28, 0, 0, 0, 22, 0, 0, 0, 29, 0, 0, 0, 87, 0, 0, 0, 26, 0, 0, 
    0, 52, 0, 0, 0, 59, 0, 0, 0, 75, 0, 0, 0, 109, 0, 0, 0, 85, 0, 0, 0, 52, 0, 
    0, 0, 23, 0, 0, 0, 4, 0, 0, 0, 38, 255, 255, 255, 4, 0, 0, 0, 32, 0, 0, 0, 
    242, 194, 218, 250, 195, 95, 127, 235, 197, 183, 108, 53, 219, 80, 61, 212, 
    71, 29, 16, 207, 66, 6, 235, 43, 46, 238, 201, 164, 21, 245, 173, 224, 82, 
    255, 255, 255, 4, 0, 0, 0, 8, 0, 0, 0, 14, 0, 0, 0, 242, 255, 255, 255, 52, 
    255, 255, 255, 56, 255, 255, 255, 15, 0, 0, 0, 77, 76, 73, 82, 32, 67, 111, 
    110, 118, 101, 114, 116, 101, 100, 46, 0, 1, 0, 0, 0, 20, 0, 0, 0, 0, 0, 
    14, 0, 24, 0, 20, 0, 16, 0, 12, 0, 8, 0, 4, 0, 14, 0, 0, 0, 20, 0, 0, 0, 
    28, 0, 0, 0, 112, 1, 0, 0, 116, 1, 0, 0, 120, 1, 0, 0, 4, 0, 0, 0, 109, 97, 
    105, 110, 0, 0, 0, 0, 5, 0, 0, 0, 24, 1, 0, 0, 208, 0, 0, 0, 136, 0, 0, 0, 
    80, 0, 0, 0, 20, 0, 0, 0, 0, 0, 14, 0, 26, 0, 20, 0, 16, 0, 12, 0, 11, 0, 
    4, 0, 14, 0, 0, 0, 28, 0, 0, 0, 0, 0, 0, 9, 28, 0, 0, 0, 32, 0, 0, 0, 1, 0, 
    0, 0, 0, 0, 6, 0, 8, 0, 4, 0, 6, 0, 0, 0, 0, 0, 128, 63, 1, 0, 0, 0, 13, 0, 
    0, 0, 1, 0, 0, 0, 12, 0, 0, 0, 150, 255, 255, 255, 20, 0, 0, 0, 0, 0, 0, 8, 
    16, 0, 0, 0, 20, 0, 0, 0, 4, 0, 4, 0, 4, 0, 0, 0, 1, 0, 0, 0, 12, 0, 0, 0, 
    3, 0, 0, 0, 11, 0, 0, 0, 2, 0, 0, 0, 1, 0, 0, 0, 202, 255, 255, 255, 16, 0, 
    0, 0, 0, 0, 0, 8, 16, 0, 0, 0, 20, 0, 0, 0, 118, 255, 255, 255, 0, 0, 0, 1, 
    1, 0, 0, 0, 11, 0, 0, 0, 3, 0, 0, 0, 10, 0, 0, 0, 4, 0, 0, 0, 3, 0, 0, 0, 
    0, 0, 14, 0, 20, 0, 0, 0, 16, 0, 12, 0, 11, 0, 4, 0, 14, 0, 0, 0, 16, 0, 0, 
    0, 0, 0, 0, 8, 16, 0, 0, 0, 20, 0, 0, 0, 186, 255, 255, 255, 0, 0, 0, 1, 1, 
    0, 0, 0, 10, 0, 0, 0, 3, 0, 0, 0, 9, 0, 0, 0, 6, 0, 0, 0, 5, 0, 0, 0, 0, 0, 
    14, 0, 22, 0, 0, 0, 16, 0, 12, 0, 11, 0, 4, 0, 14, 0, 0, 0, 24, 0, 0, 0, 0, 
    0, 0, 8, 24, 0, 0, 0, 28, 0, 0, 0, 0, 0, 6, 0, 8, 0, 7, 0, 6, 0, 0, 0, 0, 
    0, 0, 1, 1, 0, 0, 0, 9, 0, 0, 0, 3, 0, 0, 0, 0, 0, 0, 0, 8, 0, 0, 0, 7, 0, 
    0, 0, 1, 0, 0, 0, 13, 0, 0, 0, 1, 0, 0, 0, 0, 0, 0, 0, 14, 0, 0, 0, 4, 7, 
    0, 0, 116, 6, 0, 0, 240, 5, 0, 0, 116, 5, 0, 0, 8, 5, 0, 0, 140, 4, 0, 0, 
    32, 4, 0, 0, 164, 3, 0, 0, 56, 3, 0, 0, 132, 2, 0, 0, 208, 1, 0, 0, 28, 1, 
    0, 0, 128, 0, 0, 0, 4, 0, 0, 0, 74, 249, 255, 255, 0, 0, 0, 1, 24, 0, 0, 0, 
    32, 0, 0, 0, 60, 0, 0, 0, 14, 0, 0, 0, 0, 0, 0, 9, 80, 0, 0, 0, 2, 0, 0, 0, 
    255, 255, 255, 255, 2, 0, 0, 0, 52, 249, 255, 255, 8, 0, 0, 0, 16, 0, 0, 0, 
    1, 0, 0, 0, 128, 255, 255, 255, 255, 255, 255, 255, 1, 0, 0, 0, 0, 0, 128, 
    59, 25, 0, 0, 0, 83, 116, 97, 116, 101, 102, 117, 108, 80, 97, 114, 116, 
    105, 116, 105, 111, 110, 101, 100, 67, 97, 108, 108, 58, 48, 0, 0, 0, 2, 0, 
    0, 0, 1, 0, 0, 0, 2, 0, 0, 0, 194, 249, 255, 255, 0, 0, 0, 1, 24, 0, 0, 0, 
    32, 0, 0, 0, 64, 0, 0, 0, 13, 0, 0, 0, 0, 0, 0, 9, 112, 0, 0, 0, 2, 0, 0, 
    0, 255, 255, 255, 255, 2, 0, 0, 0, 172, 249, 255, 255, 8, 0, 0, 0, 20, 0, 
    0, 0, 1, 0, 0, 0, 201, 255, 255, 255, 255, 255, 255, 255, 0, 0, 0, 0, 1, 0, 
    0, 0, 232, 199, 167, 62, 52, 0, 0, 0, 115, 101, 113, 117, 101, 110, 116, 
    105, 97, 108, 47, 100, 101, 110, 115, 101, 95, 53, 47, 77, 97, 116, 77, 
    117, 108, 59, 115, 101, 113, 117, 101, 110, 116, 105, 97, 108, 47, 100, 
    101, 110, 115, 101, 95, 53, 47, 66, 105, 97, 115, 65, 100, 100, 0, 0, 0, 0, 
    2, 0, 0, 0, 1, 0, 0, 0, 2, 0, 0, 0, 90, 250, 255, 255, 0, 0, 0, 1, 24, 0, 
    0, 0, 32, 0, 0, 0, 64, 0, 0, 0, 12, 0, 0, 0, 0, 0, 0, 9, 136, 0, 0, 0, 2, 
    0, 0, 0, 255, 255, 255, 255, 16, 0, 0, 0, 68, 250, 255, 255, 8, 0, 0, 0, 
    20, 0, 0, 0, 1, 0, 0, 0, 128, 255, 255, 255, 255, 255, 255, 255, 0, 0, 0, 
    0, 1, 0, 0, 0, 45, 134, 215, 62, 76, 0, 0, 0, 115, 101, 113, 117, 101, 110, 
    116, 105, 97, 108, 47, 100, 101, 110, 115, 101, 95, 52, 47, 77, 97, 116, 
    77, 117, 108, 59, 115, 101, 113, 117, 101, 110, 116, 105, 97, 108, 47, 100, 
    101, 110, 115, 101, 95, 52, 47, 82, 101, 108, 117, 59, 115, 101, 113, 117, 
    101, 110, 116, 105, 97, 108, 47, 100, 101, 110, 115, 101, 95, 52, 47, 66, 
    105, 97, 115, 65, 100, 100, 0, 0, 0, 0, 2, 0, 0, 0, 1, 0, 0, 0, 16, 0, 0, 
    0, 10, 251, 255, 255, 0, 0, 0, 1, 24, 0, 0, 0, 32, 0, 0, 0, 64, 0, 0, 0, 
    11, 0, 0, 0, 0, 0, 0, 9, 136, 0, 0, 0, 2, 0, 0, 0, 255, 255, 255, 255, 32, 
    0, 0, 0, 244, 250, 255, 255, 8, 0, 0, 0, 20, 0, 0, 0, 1, 0, 0, 0, 128, 255, 
    255, 255, 255, 255, 255, 255, 0, 0, 0, 0, 1, 0, 0, 0, 190, 172, 219, 62, 
    76, 0, 0, 0, 115, 101, 113, 117, 101, 110, 116, 105, 97, 108, 47, 100, 101, 
    110, 115, 101, 95, 51, 47, 77, 97, 116, 77, 117, 108, 59, 115, 101, 113, 
    117, 101, 110, 116, 105, 97, 108, 47, 100, 101, 110, 115, 101, 95, 51, 47, 
    82, 101, 108, 117, 59, 115, 101, 113, 117, 101, 110, 116, 105, 97, 108, 47, 
    100, 101, 110, 115, 101, 95, 51, 47, 66, 105, 97, 115, 65, 100, 100, 0, 0, 
    0, 0, 2, 0, 0, 0, 1, 0, 0, 0, 32, 0, 0, 0, 186, 251, 255, 255, 0, 0, 0, 1, 
    24, 0, 0, 0, 32, 0, 0, 0, 64, 0, 0, 0, 10, 0, 0, 0, 0, 0, 0, 9, 136, 0, 0, 
    0, 2, 0, 0, 0, 255, 255, 255, 255, 64, 0, 0, 0, 164, 251, 255, 255, 8, 0, 
    0, 0, 20, 0, 0, 0, 1, 0, 0, 0, 128, 255, 255, 255, 255, 255, 255, 255, 0, 
    0, 0, 0, 1, 0, 0, 0, 120, 8, 191, 62, 76, 0, 0, 0, 115, 101, 113, 117, 101, 
    110, 116, 105, 97, 108, 47, 100, 101, 110, 115, 101, 95, 50, 47, 77, 97, 
    116, 77, 117, 108, 59, 115, 101, 113, 117, 101, 110, 116, 105, 97, 108, 47, 
    100, 101, 110, 115, 101, 95, 50, 47, 82, 101, 108, 117, 59, 115, 101, 113, 
    117, 101, 110, 116, 105, 97, 108, 47, 100, 101, 110, 115, 101, 95, 50, 47, 
    66, 105, 97, 115, 65, 100, 100, 0, 0, 0, 0, 2, 0, 0, 0, 1, 0, 0, 0, 64, 0, 
    0, 0, 246, 252, 255, 255, 0, 0, 0, 1, 20, 0, 0, 0, 48, 0, 0, 0, 9, 0, 0, 0, 
    0, 0, 0, 9, 68, 0, 0, 0, 68, 252, 255, 255, 8, 0, 0, 0, 16, 0, 0, 0, 1, 0, 
    0, 0, 0, 0, 0, 0, 0, 0, 0, 0, 1, 0, 0, 0, 76, 94, 207, 59, 25, 0, 0, 0, 
    115, 101, 113, 117, 101, 110, 116, 105, 97, 108, 47, 100, 101, 110, 115, 
    101, 95, 50, 47, 77, 97, 116, 77, 117, 108, 0, 0, 0, 2, 0, 0, 0, 64, 0, 0, 
    0, 38, 0, 0, 0, 94, 253, 255, 255, 0, 0, 0, 1, 20, 0, 0, 0, 52, 0, 0, 0, 8, 
    0, 0, 0, 0, 0, 0, 2, 88, 0, 0, 0, 172, 252, 255, 255, 8, 0, 0, 0, 20, 0, 0, 
    0, 1, 0, 0, 0, 0, 0, 0, 0, 0, 0, 0, 0, 0, 0, 0, 0, 1, 0, 0, 0, 116, 136, 
    18, 60, 41, 0, 0, 0, 115, 101, 113, 117, 101, 110, 116, 105, 97, 108, 47, 
    100, 101, 110, 115, 101, 95, 50, 47, 66, 105, 97, 115, 65, 100, 100, 47, 
    82, 101, 97, 100, 86, 97, 114, 105, 97, 98, 108, 101, 79, 112, 0, 0, 0, 1, 
    0, 0, 0, 64, 0, 0, 0, 214, 253, 255, 255, 0, 0, 0, 1, 20, 0, 0, 0, 48, 0, 
    0, 0, 7, 0, 0, 0, 0, 0, 0, 9, 68, 0, 0, 0, 36, 253, 255, 255, 8, 0, 0, 0, 
    16, 0, 0, 0, 1, 0, 0, 0, 0, 0, 0, 0, 0, 0, 0, 0, 1, 0, 0, 0, 174, 143, 200, 
    59, 25, 0, 0, 0, 115, 101, 113, 117, 101, 110, 116, 105, 97, 108, 47, 100, 
    101, 110, 115, 101, 95, 51, 47, 77, 97, 116, 77, 117, 108, 0, 0, 0, 2, 0, 
    0, 0, 32, 0, 0, 0, 64, 0, 0, 0, 62, 254, 255, 255, 0, 0, 0, 1, 20, 0, 0, 0, 
    52, 0, 0, 0, 6, 0, 0, 0, 0, 0, 0, 2, 88, 0, 0, 0, 140, 253, 255, 255, 8, 0, 
    0, 0, 20, 0, 0, 0, 1, 0, 0, 0, 0, 0, 0, 0, 0, 0, 0, 0, 0, 0, 0, 0, 1, 0, 0, 
    0, 213, 169, 21, 59, 41, 0, 0, 0, 115, 101, 113, 117, 101, 110, 116, 105, 
    97, 108, 47, 100, 101, 110, 115, 101, 95, 51, 47, 66, 105, 97, 115, 65, 
    100, 100, 47, 82, 101, 97, 100, 86, 97, 114, 105, 97, 98, 108, 101, 79, 
    112, 0, 0, 0, 1, 0, 0, 0, 32, 0, 0, 0, 182, 254, 255, 255, 0, 0, 0, 1, 20, 
    0, 0, 0, 48, 0, 0, 0, 5, 0, 0, 0, 0, 0, 0, 9, 68, 0, 0, 0, 4, 254, 255, 
    255, 8, 0, 0, 0, 16, 0, 0, 0, 1, 0, 0, 0, 0, 0, 0, 0, 0, 0, 0, 0, 1, 0, 0, 
    0, 243, 3, 191, 59, 25, 0, 0, 0, 115, 101, 113, 117, 101, 110, 116, 105, 
    97, 108, 47, 100, 101, 110, 115, 101, 95, 52, 47, 77, 97, 116, 77, 117, 
    108, 0, 0, 0, 2, 0, 0, 0, 16, 0, 0, 0, 32, 0, 0, 0, 30, 255, 255, 255, 0, 
    0, 0, 1, 20, 0, 0, 0, 52, 0, 0, 0, 4, 0, 0, 0, 0, 0, 0, 2, 88, 0, 0, 0, 
    108, 254, 255, 255, 8, 0, 0, 0, 20, 0, 0, 0, 1, 0, 0, 0, 0, 0, 0, 0, 0, 0, 
    0, 0, 0, 0, 0, 0, 1, 0, 0, 0, 69, 233, 35, 59, 41, 0, 0, 0, 115, 101, 113, 
    117, 101, 110, 116, 105, 97, 108, 47, 100, 101, 110, 115, 101, 95, 52, 47, 
    66, 105, 97, 115, 65, 100, 100, 47, 82, 101, 97, 100, 86, 97, 114, 105, 97, 
    98, 108, 101, 79, 112, 0, 0, 0, 1, 0, 0, 0, 16, 0, 0, 0, 150, 255, 255, 
    255, 0, 0, 0, 1, 20, 0, 0, 0, 48, 0, 0, 0, 3, 0, 0, 0, 0, 0, 0, 9, 68, 0, 
    0, 0, 228, 254, 255, 255, 8, 0, 0, 0, 16, 0, 0, 0, 1, 0, 0, 0, 0, 0, 0, 0, 
    0, 0, 0, 0, 1, 0, 0, 0, 29, 195, 245, 59, 25, 0, 0, 0, 115, 101, 113, 117, 
    101, 110, 116, 105, 97, 108, 47, 100, 101, 110, 115, 101, 95, 53, 47, 77, 
    97, 116, 77, 117, 108, 0, 0, 0, 2, 0, 0, 0, 2, 0, 0, 0, 16, 0, 0, 0, 0, 0, 
    22, 0, 28, 0, 24, 0, 23, 0, 16, 0, 12, 0, 8, 0, 0, 0, 0, 0, 0, 0, 7, 0, 22, 
    0, 0, 0, 0, 0, 0, 1, 20, 0, 0, 0, 48, 0, 0, 0, 2, 0, 0, 0, 0, 0, 0, 2, 84, 
    0, 0, 0, 100, 255, 255, 255, 8, 0, 0, 0, 16, 0, 0, 0, 1, 0, 0, 0, 0, 0, 0, 
    0, 0, 0, 0, 0, 1, 0, 0, 0, 173, 231, 78, 59, 41, 0, 0, 0, 115, 101, 113, 
    117, 101, 110, 116, 105, 97, 108, 47, 100, 101, 110, 115, 101, 95, 53, 47, 
    66, 105, 97, 115, 65, 100, 100, 47, 82, 101, 97, 100, 86, 97, 114, 105, 97, 
    98, 108, 101, 79, 112, 0, 0, 0, 1, 0, 0, 0, 2, 0, 0, 0, 0, 0, 22, 0, 32, 0, 
    28, 0, 27, 0, 20, 0, 16, 0, 12, 0, 0, 0, 0, 0, 8, 0, 7, 0, 22, 0, 0, 0, 0, 
    0, 0, 1, 24, 0, 0, 0, 44, 0, 0, 0, 76, 0, 0, 0, 1, 0, 0, 0, 0, 0, 0, 9, 96, 
    0, 0, 0, 2, 0, 0, 0, 255, 255, 255, 255, 38, 0, 0, 0, 12, 0, 12, 0, 0, 0, 
    0, 0, 8, 0, 4, 0, 12, 0, 0, 0, 8, 0, 0, 0, 20, 0, 0, 0, 1, 0, 0, 0, 132, 
    255, 255, 255, 255, 255, 255, 255, 0, 0, 0, 0, 1, 0, 0, 0, 206, 229, 180, 
    63, 25, 0, 0, 0, 115, 101, 114, 118, 105, 110, 103, 95, 100, 101, 102, 97, 
    117, 108, 116, 95, 105, 110, 112, 117, 116, 95, 51, 58, 48, 0, 0, 0, 2, 0, 
    0, 0, 1, 0, 0, 0, 38, 0, 0, 0, 2, 0, 0, 0, 36, 0, 0, 0, 4, 0, 0, 0, 240, 
    255, 255, 255, 25, 0, 0, 0, 2, 0, 0, 0, 0, 0, 0, 25, 12, 0, 16, 0, 15, 0, 
    0, 0, 8, 0, 4, 0, 12, 0, 0, 0, 9, 0, 0, 0, 4, 0, 0, 0, 0, 0, 0, 9
};

#endif //NETWORK_MODEL_H